#include <stdint.h>
constexpr uint32_t RLUT_MODEL_WEIGHTS[320] = {
	0x3eb8a533, 0xbee13bd2, 0xbed8bee4, 0xbf257855, 0x3dd34430, 0x3e0a2cec, 0x3eda085b, 0xbfffd102, 0x3e1dcfaa, 0xbd3c0ff2, 0x3f6970d6, 0x3fe6bede, 0xbd6a0b49, 0xbe2797b6, 0x3f11e2f7, 0x3fd11bea,
	0xbeb0786e, 0x3ffee165, 0x3f737f5c, 0x3fb313eb, 0x3ea8378d, 0xbb60667b, 0x3fa0fe54, 0xbf98d52f, 0x3e7945ae, 0xbf71fd9f, 0x3e11ccef, 0x3eb6189e, 0xbe9ba946, 0xbed9d3f1, 0xbfacdcfb, 0xbf3be0d9,
	0x3f18729f, 0xbe418634, 0x3f30472f, 0xbda65e7f, 0x3f884848, 0x3fc166ce, 0x3f9752aa, 0x3f26bf8c, 0xbed2278f, 0x3e894ea3, 0xbd97f00f, 0x3e9f2afc, 0xbe7aaeb0, 0xbb64e87a, 0x3e20b5cb, 0xbe4d30f5,
	0x3f0b7cbf, 0xbe558675, 0x3eccd1eb, 0x3f2ad99b, 0xbf0774b9, 0xbec578e6, 0xbf54fb25, 0x3eda2d61, 0xbf03ea94, 0x3ec813b5, 0x3ef28940, 0xbf8d27b6, 0x3ee1f092, 0x3f9a60ad, 0xbf04844e, 0x3f22ffe8,
	0xbdfa6f93, 0x3f85a7c8, 0x3e21b627, 0xbed8b716, 0x3f00011c, 0x3fb453e0, 0xbcf8267c, 0x3f99d919, 0xbf8ac6bd, 0x3f529b5b, 0xbfae640b, 0xbf23c9a3, 0x3d73a15e, 0xbf19c422, 0xbf832dd6, 0xbe81f52b,
	0x3e6395e5, 0xbf6bb989, 0x3e3cf8ef, 0x3e5a2f67, 0xbee6aa7e, 0xbe8fbfff, 0x3e4803cc, 0xbf65e3b7, 0x3ed7914f, 0xbf856474, 0x3e35bd2b, 0x3f051527, 0xbf7da436, 0x3f1ee01b, 0x3f18c8f6, 0x3ee62710,
	0x3ed42d25, 0xbe89aad2, 0x3de9c2fa, 0xbe280e93, 0xbf3b78ce, 0x3ea8830f, 0xbe92dae8, 0x3ebae73d, 0xbf52ab64, 0xbf361256, 0xbf827f81, 0x3f7bb725, 0x3df3f5ed, 0x3ec08fb8, 0xbf85c696, 0x3e9d0b00,
	0x3f05fa7d, 0xbebc61c2, 0xbd159f45, 0x3dee6705, 0xbdd1e154, 0x3f53e859, 0xbe970c42, 0xbfa3b7cf, 0x3f98c619, 0xbf2fc766, 0x3f4de8ea, 0xbfa2d498, 0x3f6db8b5, 0xbeb5bad5, 0x3f861d67, 0xbd585e0d,
	0xbf7c963c, 0xbeb394b5, 0xbfbf98e3, 0xbefb0837, 0x3f003b5b, 0x3f86eb89, 0x3f906ee8, 0xbfaf11d9, 0x3f95cce5, 0xbccede9c, 0x3f7840cd, 0x3f36cf9f, 0x3ea3ccb4, 0xbf138d95, 0x3f38b9a7, 0x3d39d27b,
	0xbe207815, 0x3f2db910, 0xbe03a60e, 0x3ecc2804, 0x3f0101dc, 0x3f1bbd96, 0x3e853efb, 0xbf3b6977, 0x3f1df020, 0xbec245e0, 0x3f5ba9f9, 0xbe187567, 0x3e68a6a3, 0xbf8f2891, 0x3f0404b8, 0x3eb339be,
	0xbdcda884, 0xbed4a6b4, 0xbf4e8b60, 0x3ea0898c, 0xbf409638, 0xbebf9f2e, 0xbf158a19, 0xbfe124dd, 0x3db1c8eb, 0xbeac23bc, 0xbecf21bd, 0x3f32c86d, 0xbe91fc48, 0x3e80b3ae, 0x3e02b467, 0x3fa7ebbd,
	0xbf6690fd, 0x3e8dbd47, 0x3e1bd493, 0x3f0a25d0, 0xbe87cbcc, 0xbe47b1b7, 0x3da2ee49, 0xbe70fce0, 0x3e0e8c01, 0xbd93b420, 0x3e03b914, 0xbd2ff57e, 0xbd0f9fd0, 0x3e4cc889, 0xbd1e79e0, 0xbe008868,
	0xbce829e2, 0x3d011f7c, 0xbc565a14, 0xbe7af89e, 0xba856901, 0xbe0b446f, 0xbe129be7, 0x3e005e90, 0x3eeff952, 0x3f3fdfd6, 0x3e3cc227, 0x3dbb1fb6, 0xbd20ea42, 0xbd1fc213, 0xbda667d2, 0xbeebc0b1,
	0x3f16f46d, 0x3ea497f0, 0xbd8a0632, 0xbef3c621, 0xbf1fd582, 0xbf1dbd2a, 0xbf0edc3e, 0xbf29d28e, 0xbd453a73, 0x3d826cea, 0xbc70d603, 0x3ec67b16, 0x3f242c36, 0xbc20428b, 0xbf8140c9, 0xbeb01884,
	0x3eea71ab, 0x3f17f051, 0x3e8f9786, 0xbeea619a, 0x3c6ff167, 0x3dabda5a, 0xbec6e3dc, 0xbe9e4c3d, 0x3d55465c, 0xbc0d34cc, 0x3dd79c94, 0x3da2964d, 0xbf769a1b, 0x3ed447a4, 0x3f003903, 0x3e9cc7fb,
	0x3e3dc488, 0xbf8289b7, 0xbfb32d37, 0xbea713be, 0xbded1e24, 0x3fd38b9b, 0xbdd546c7, 0xbf3699ef, 0x3f17f509, 0x3d909a9c, 0xbd328266, 0xbed1b8f7, 0xbed6f34f, 0x3eb5fa62, 0x3f0b231f, 0x3de877f3,
	0xbf30edc9, 0xbf0abfc5, 0xbcd4d3df, 0xbcfbd0f6, 0xbf91576c, 0x3ef60901, 0xbe73f072, 0xbfb77053, 0x3f3beb9c, 0x3ebc4a19, 0x3fd447d7, 0x3eabfbba, 0x402804af, 0xbf952294, 0xbeac2356, 0x3ec62cec,
	0xbf988dc2, 0x3e060e8e, 0x3f42a60d, 0xbeef41a4, 0x3d28cd6d, 0x3fd766e0, 0xbf71842d, 0x3d95e799, 0x3fb0652b, 0x3e1d8f30, 0x40127400, 0xc0355c6c, 0xbf200766, 0xbfb8c6bc, 0x3f255730, 0xbf8785da,
	0xbf2cd4d9, 0x3e9e4f07, 0xc01f3e5e, 0xbe4835f8, 0x3e02cac7, 0x3e62cebc, 0xbfe0d82f, 0x3fda2809, 0xbfb5c247, 0xbf243980, 0xbfb64e75, 0x3f03f41b, 0x3f7d6d51, 0x3f1eb33c, 0xbfc4183f, 0x3f8419ae,
	0xbfb31397, 0xbf247778, 0xc03127e2, 0x3e8f8ef4, 0x3fe48ec2, 0xbdda2c5d, 0x3fade441, 0x3f8358cb, 0x3f7fde1c, 0xc000ca53, 0xbf2e59ab, 0xbdc30624, 0xbfc32175, 0xbee5e8e2, 0x3f4c887f, 0xbfe3e89b
};